010C00002CC
3767FFFFB94
0673FFFFDF4
392BFFFFDE3
3B77FFFFD47
02E7FFFFCFD
3CDBFFFFEDE
09A8000002D
3667FFFFEDF
36FFFFFFDC0
04E800002A5
369FFFFFEDC
009C000035E
338000002F3
0F9FFFFFC11
3D27FFFFDDB
30BC000010C
00A8000020B
08F3FFFFDCE
09FFFFFFCB8
2E9FFFFFCE9
35040000157
062800001F5
03AFFFFFCB8
013C0000335
0130000023A
3FF400002B6
33A00000356
394BFFFFD4F
3523FFFFEC1
065BFFFFE6D
00EBFFFFE7E
0193FFFFE24
099BFFFFD95
3BABFFFFB53
07E7FFFFBD3
0D4400003B6
3BD3FFFFD6E
0343FFFFF50
09E3FFFFFAE
3F68000017E
3A5800003E4
014000002B8
009000002BC
3FC000000AF
07FFFFFFFC4
31E7FFFFBE6
3C3000001AC
3FC00000443
393FFFFFCCE
3DA8000002B
3F47FFFFED5
08100000018
0DC3FFFFBD9
3CDBFFFFC62
066BFFFFC0A
0A48000008A
01B000003B7
06F00000088
0563FFFFE8F
015BFFFFD8E
36040000264
08B8000005C
383BFFFFE72
